#ifndef ONE_TFLITE_H
#define ONE_TFLITE_H

static const unsigned char [[aligned(8)]] one_tflite[] = {
	0x1c, 0x00, 0x00, 0x00, 0x54, 0x46, 0x4c, 0x33, 0x14, 0x00, 0x20, 0x00,
	0x04, 0x00, 0x08, 0x00, 0x0c, 0x00, 0x10, 0x00, 0x14, 0x00, 0x00, 0x00,
	0x18, 0x00, 0x1c, 0x00, 0x14, 0x00, 0x00, 0x00, 0x03, 0x00, 0x00, 0x00,
	0x3c, 0x00, 0x00, 0x00, 0x30, 0x00, 0x00, 0x00, 0x90, 0x00, 0x00, 0x00,
	0x0c, 0x00, 0x00, 0x00, 0x38, 0x00, 0x00, 0x00, 0x30, 0x00, 0x00, 0x00,
	0x06, 0x00, 0x00, 0x00, 0xc4, 0x0b, 0x00, 0x00, 0xc0, 0x0b, 0x00, 0x00,
	0x98, 0x0a, 0x00, 0x00, 0x50, 0x02, 0x00, 0x00, 0xb4, 0x0b, 0x00, 0x00,
	0x4c, 0x00, 0x00, 0x00, 0x01, 0x00, 0x00, 0x00, 0x84, 0x00, 0x00, 0x00,
	0x01, 0x00, 0x00, 0x00, 0x9c, 0x01, 0x00, 0x00, 0x00, 0x00, 0x00, 0x00,
	0x01, 0x00, 0x00, 0x00, 0x0c, 0x00, 0x00, 0x00, 0x08, 0x00, 0x0c, 0x00,
	0x04, 0x00, 0x08, 0x00, 0x08, 0x00, 0x00, 0x00, 0x08, 0x00, 0x00, 0x00,
	0x05, 0x00, 0x00, 0x00, 0x13, 0x00, 0x00, 0x00, 0x6d, 0x69, 0x6e, 0x5f,
	0x72, 0x75, 0x6e, 0x74, 0x69, 0x6d, 0x65, 0x5f, 0x76, 0x65, 0x72, 0x73,
	0x69, 0x6f, 0x6e, 0x00, 0xc6, 0xf5, 0xff, 0xff, 0x04, 0x00, 0x00, 0x00,
	0x10, 0x00, 0x00, 0x00, 0x00, 0x00, 0x00, 0x00, 0x00, 0x00, 0x00, 0x00,
	0x00, 0x00, 0x00, 0x00, 0x00, 0x00, 0x00, 0x00, 0x0f, 0x00, 0x00, 0x00,
	0x4d, 0x4c, 0x49, 0x52, 0x20, 0x43, 0x6f, 0x6e, 0x76, 0x65, 0x72, 0x74,
	0x65, 0x64, 0x2e, 0x00, 0x00, 0x00, 0x0e, 0x00, 0x18, 0x00, 0x04, 0x00,
	0x08, 0x00, 0x0c, 0x00, 0x10, 0x00, 0x14, 0x00, 0x0e, 0x00, 0x00, 0x00,
	0x38, 0x00, 0x00, 0x00, 0x2c, 0x00, 0x00, 0x00, 0x20, 0x00, 0x00, 0x00,
	0x14, 0x00, 0x00, 0x00, 0x04, 0x00, 0x00, 0x00, 0x04, 0x00, 0x00, 0x00,
	0x6d, 0x61, 0x69, 0x6e, 0x00, 0x00, 0x00, 0x00, 0x01, 0x00, 0x00, 0x00,
	0x38, 0x00, 0x00, 0x00, 0x01, 0x00, 0x00, 0x00, 0x03, 0x00, 0x00, 0x00,
	0x01, 0x00, 0x00, 0x00, 0x00, 0x00, 0x00, 0x00, 0x04, 0x00, 0x00, 0x00,
	0x5c, 0x0a, 0x00, 0x00, 0x18, 0x0a, 0x00, 0x00, 0x80, 0x09, 0x00, 0x00,
	0xf8, 0x00, 0x00, 0x00, 0x10, 0x00, 0x10, 0x00, 0x00, 0x00, 0x04, 0x00,
	0x08, 0x00, 0x00, 0x00, 0x00, 0x00, 0x0c, 0x00, 0x10, 0x00, 0x00, 0x00,
	0xa0, 0x00, 0x00, 0x00, 0x94, 0x00, 0x00, 0x00, 0x04, 0x00, 0x00, 0x00,
	0x87, 0x00, 0x00, 0x00, 0x6b, 0x74, 0x00, 0x6d, 0x70, 0x00, 0x08, 0xc0,
	0x00, 0x00, 0x00, 0x20, 0x00, 0x00, 0x00, 0x00, 0x61, 0x67, 0x67, 0x70,
	0x00, 0x18, 0x00, 0x08, 0x00, 0x00, 0x01, 0x00, 0x00, 0x00, 0x01, 0x00,
	0x00, 0x00, 0x00, 0x00, 0x00, 0x00, 0x00, 0x00, 0x00, 0x00, 0x80, 0x00,
	0x00, 0x00, 0x00, 0x6f, 0x74, 0x70, 0x00, 0x08, 0x10, 0x00, 0x00, 0x00,
	0x03, 0x00, 0xff, 0xff, 0x00, 0x73, 0x63, 0x72, 0x61, 0x74, 0x63, 0x68,
	0x00, 0x61, 0x6b, 0x70, 0x00, 0x20, 0x00, 0x00, 0x00, 0x00, 0x06, 0x00,
	0x00, 0x00, 0x00, 0x00, 0x00, 0x00, 0x05, 0x00, 0x00, 0x00, 0x01, 0x00,
	0x00, 0x00, 0x00, 0x00, 0x00, 0x00, 0x00, 0x00, 0x00, 0x00, 0x10, 0x00,
	0x00, 0x00, 0x00, 0x01, 0x22, 0x14, 0x06, 0x5f, 0x2b, 0x71, 0x6f, 0x44,
	0x37, 0x06, 0x01, 0x06, 0x62, 0x0d, 0x00, 0x74, 0x48, 0x00, 0x14, 0x28,
	0x04, 0x14, 0x14, 0x04, 0x0c, 0x24, 0x01, 0x00, 0x01, 0x00, 0x00, 0x00,
	0x03, 0x00, 0x00, 0x00, 0x03, 0x00, 0x00, 0x00, 0x00, 0x00, 0x00, 0x00,
	0x02, 0x00, 0x00, 0x00, 0x01, 0x00, 0x00, 0x00, 0x0c, 0x00, 0x10, 0x00,
	0x0f, 0x00, 0x08, 0x00, 0x00, 0x00, 0x04, 0x00, 0x0c, 0x00, 0x00, 0x00,
	0x20, 0x00, 0x00, 0x00, 0x08, 0x00, 0x00, 0x00, 0x00, 0x00, 0x00, 0x20,
	0x0c, 0x00, 0x00, 0x00, 0x58, 0x43, 0x5f, 0x63, 0x6f, 0x6e, 0x76, 0x32,
	0x64, 0x5f, 0x76, 0x32, 0x00, 0x00, 0x00, 0x00, 0xbc, 0xf6, 0xff, 0xff,
	0x00, 0x00, 0x00, 0x09, 0x38, 0x00, 0x00, 0x00, 0x04, 0x00, 0x00, 0x00,
	0x20, 0x00, 0x00, 0x00, 0x40, 0x00, 0x00, 0x00, 0x04, 0x00, 0x00, 0x00,
	0x04, 0x00, 0x00, 0x00, 0xff, 0xff, 0xff, 0xff, 0x06, 0x00, 0x00, 0x00,
	0x05, 0x00, 0x00, 0x00, 0x10, 0x00, 0x00, 0x00, 0x08, 0x00, 0x00, 0x00,
	0x49, 0x64, 0x65, 0x6e, 0x74, 0x69, 0x74, 0x79, 0x00, 0x00, 0x00, 0x00,
	0x04, 0x00, 0x00, 0x00, 0x01, 0x00, 0x00, 0x00, 0x06, 0x00, 0x00, 0x00,
	0x05, 0x00, 0x00, 0x00, 0x10, 0x00, 0x00, 0x00, 0xa4, 0xf6, 0xff, 0xff,
	0x18, 0x00, 0x00, 0x00, 0x04, 0x00, 0x00, 0x00, 0x01, 0x00, 0x00, 0x00,
	0x09, 0x00, 0x00, 0x00, 0x00, 0x00, 0x00, 0x00, 0x00, 0x00, 0x00, 0x00,
	0x01, 0x00, 0x00, 0x00, 0x9e, 0xe5, 0xd5, 0x3d, 0xc2, 0xf7, 0xff, 0xff,
	0x04, 0x00, 0x00, 0x00, 0x00, 0x08, 0x00, 0x00, 0xc9, 0x6a, 0x7f, 0x3f,
	0x3e, 0xe7, 0x18, 0x97, 0xfc, 0xaa, 0x1c, 0x3a, 0x85, 0xe5, 0x1c, 0xe2,
	0xbd, 0x7a, 0x0d, 0x86, 0xaf, 0xea, 0x56, 0x92, 0x14, 0x74, 0xcc, 0xf4,
	0x16, 0x27, 0xb4, 0xca, 0x5e, 0xce, 0x16, 0x2b, 0x57, 0x4f, 0x8b, 0xb8,
	0xc0, 0x30, 0x85, 0xac, 0xf8, 0x10, 0xf5, 0xde, 0x5b, 0xdc, 0xab, 0x49,
	0x82, 0x6c, 0x35, 0xb1, 0x05, 0xca, 0xdc, 0x54, 0x97, 0x42, 0x2c, 0xea,
	0x05, 0x6b, 0xa7, 0xa2, 0xf6, 0xfa, 0xf6, 0x1c, 0x4a, 0x4e, 0x77, 0x24,
	0x9a, 0x99, 0x51, 0x7f, 0xb5, 0x40, 0x4d, 0x7d, 0xb9, 0xef, 0x88, 0x76,
	0xea, 0x9b, 0x1f, 0x7a, 0xb0, 0xa8, 0x1c, 0x3f, 0xba, 0xeb, 0x12, 0x60,
	0xd5, 0x97, 0x63, 0x74, 0x2b, 0xd4, 0x88, 0x5a, 0x6d, 0x75, 0x03, 0x56,
	0x9e, 0x1d, 0x51, 0x81, 0x97, 0x41, 0x14, 0xc2, 0xae, 0xff, 0x50, 0x13,
	0xa9, 0xe0, 0xd4, 0xef, 0xbf, 0xfe, 0x7d, 0xd7, 0x13, 0x19, 0xa6, 0x37,
	0xc4, 0x5a, 0xf5, 0x6b, 0x25, 0xf5, 0xd3, 0xba, 0x58, 0x5f, 0x69, 0x23,
	0x58, 0x66, 0xd0, 0xc2, 0x00, 0x05, 0x23, 0x8f, 0x7f, 0x7d, 0xf4, 0x76,
	0xdd, 0x4e, 0x81, 0xfe, 0xab, 0x49, 0x8a, 0xbf, 0x97, 0x19, 0x90, 0x39,
	0xdd, 0x30, 0xd4, 0x04, 0x59, 0x40, 0x82, 0xeb, 0x8a, 0x0c, 0x3d, 0x99,
	0x5f, 0xb4, 0x76, 0x9b, 0x3d, 0x6a, 0x84, 0x4e, 0x9f, 0x41, 0xec, 0x41,
	0x81, 0x8b, 0x3d, 0xb0, 0x84, 0x44, 0x25, 0x46, 0x4e, 0x72, 0x19, 0xc4,
	0xe1, 0x76, 0xd1, 0x20, 0xab, 0x6d, 0xc8, 0x87, 0x1d, 0x63, 0x8a, 0x10,
	0xbd, 0x3f, 0xd6, 0x55, 0x27, 0xfc, 0x95, 0xf6, 0xc8, 0x33, 0x10, 0xbb,
	0xaa, 0x0a, 0xa1, 0x3d, 0x14, 0x6c, 0x37, 0xae, 0xfd, 0x47, 0xb3, 0x0c,
	0xc6, 0x33, 0xad, 0x74, 0x09, 0x72, 0xf4, 0xb5, 0x82, 0x59, 0x4b, 0x07,
	0xfb, 0x00, 0xfc, 0x11, 0x0a, 0x23, 0x52, 0x68, 0xe4, 0x5f, 0x74, 0xa9,
	0x57, 0x96, 0x04, 0x11, 0x79, 0xc4, 0xea, 0xfd, 0x99, 0xb8, 0xa7, 0x81,
	0x7b, 0xea, 0x20, 0x2d, 0xfe, 0xd6, 0x2b, 0x31, 0xce, 0x23, 0xe6, 0x8b,
	0x00, 0x4f, 0x36, 0x8a, 0xa3, 0xa6, 0x3b, 0x93, 0x9d, 0x5d, 0x8a, 0x55,
	0xca, 0x51, 0x33, 0xac, 0x07, 0xbc, 0xcf, 0x2b, 0x3e, 0x16, 0xf2, 0x85,
	0x4b, 0x06, 0x7c, 0x30, 0x4a, 0x66, 0xdc, 0x15, 0x1d, 0x36, 0x57, 0xc6,
	0x8f, 0x64, 0x19, 0x4b, 0x91, 0xcd, 0xfa, 0xd3, 0x83, 0x1c, 0x11, 0x0b,
	0x15, 0x19, 0x9b, 0xa5, 0xb7, 0x46, 0xab, 0xa6, 0x02, 0x12, 0xbd, 0xbc,
	0x38, 0x4e, 0x4e, 0x35, 0x60, 0x36, 0xd6, 0x4e, 0xb4, 0xa3, 0x21, 0xbd,
	0xcd, 0x10, 0x6f, 0x16, 0x35, 0x12, 0x52, 0xc0, 0x92, 0xd7, 0xae, 0xc9,
	0xd8, 0x3d, 0xab, 0x53, 0xb6, 0x53, 0x4c, 0x67, 0x0c, 0xfd, 0x56, 0x97,
	0x73, 0x08, 0xe9, 0xa7, 0xfa, 0xe9, 0xcf, 0x06, 0xdb, 0x47, 0x57, 0xfb,
	0x45, 0x4d, 0x5a, 0xec, 0x77, 0x53, 0x9f, 0xbe, 0xaf, 0x36, 0xa5, 0x51,
	0x3c, 0x65, 0x4c, 0x25, 0xcc, 0xf0, 0x29, 0xb6, 0xdc, 0xa2, 0x28, 0x71,
	0xfd, 0xad, 0x40, 0xda, 0x64, 0x33, 0x78, 0xde, 0x05, 0xb2, 0x7e, 0x1e,
	0x9f, 0x54, 0x22, 0xf6, 0xee, 0x7c, 0x89, 0xae, 0x25, 0x3d, 0x27, 0xab,
	0x13, 0x2d, 0xd9, 0x0e, 0x09, 0x6a, 0x97, 0x4b, 0x10, 0xe0, 0x07, 0x64,
	0x42, 0xe6, 0x51, 0xe5, 0xa8, 0xe8, 0x7b, 0xda, 0x77, 0x53, 0xbc, 0x93,
	0x5c, 0xe6, 0x79, 0x26, 0x4a, 0x03, 0xc9, 0x77, 0xa1, 0xfe, 0x26, 0x81,
	0x29, 0x48, 0x64, 0xa3, 0x0d, 0x2d, 0xda, 0xf0, 0xdf, 0xa6, 0x56, 0x35,
	0xe8, 0x57, 0xf0, 0x02, 0xf0, 0x3f, 0x66, 0xbb, 0x2b, 0x36, 0xd5, 0xb4,
	0xab, 0x0a, 0x7f, 0xd8, 0x38, 0x63, 0xda, 0xb0, 0x2a, 0x5e, 0x22, 0x88,
	0x4a, 0x34, 0x31, 0xc3, 0xf9, 0xc6, 0x7f, 0xb6, 0x87, 0xba, 0x64, 0x95,
	0xd7, 0x24, 0x4c, 0x2b, 0xe2, 0xaf, 0xa0, 0xea, 0xf3, 0x99, 0x51, 0x17,
	0x20, 0x2f, 0x72, 0xe9, 0x51, 0xaf, 0xfc, 0x99, 0x66, 0x67, 0xf6, 0x00,
	0xa1, 0x01, 0xa2, 0x59, 0xb3, 0xbf, 0x7f, 0x2f, 0x2b, 0x82, 0xe5, 0xa6,
	0xf9, 0xbf, 0x04, 0xef, 0xe1, 0x30, 0xca, 0xd5, 0xac, 0x98, 0x8c, 0xe1,
	0x2e, 0x3b, 0x2c, 0x0f, 0x44, 0x05, 0xba, 0x33, 0xde, 0x48, 0x5f, 0x23,
	0xf0, 0x0b, 0x1c, 0xa3, 0x3f, 0xa8, 0x81, 0x1b, 0xe9, 0x5f, 0x99, 0xe8,
	0x48, 0x58, 0xa9, 0x07, 0x33, 0xf6, 0xa2, 0x4d, 0x8b, 0x52, 0x33, 0x51,
	0x87, 0xa7, 0x51, 0xce, 0x26, 0x23, 0x09, 0x61, 0x4d, 0xfc, 0xdc, 0xbe,
	0x0c, 0x82, 0x42, 0x19, 0xa2, 0x04, 0x70, 0x7e, 0x81, 0xb6, 0x7a, 0xed,
	0x5f, 0x4c, 0xa5, 0xaa, 0xf5, 0xe0, 0xa1, 0x6c, 0x66, 0xd6, 0x35, 0x72,
	0x84, 0x79, 0x5d, 0xf0, 0x6b, 0x55, 0x89, 0x94, 0xdd, 0x7c, 0x92, 0xd0,
	0x0b, 0xf1, 0x0b, 0xf2, 0xdf, 0xca, 0x04, 0xb0, 0xa1, 0x15, 0x19, 0x03,
	0x86, 0xbf, 0xa4, 0x73, 0xe6, 0x64, 0x1a, 0xd1, 0x3f, 0x83, 0x46, 0xba,
	0x3e, 0x95, 0xcb, 0x49, 0x7e, 0x5b, 0x06, 0x8c, 0x82, 0x4f, 0xd0, 0x3a,
	0xda, 0x8c, 0x56, 0x07, 0x69, 0x74, 0xc7, 0x8e, 0xe8, 0x89, 0xf1, 0x9c,
	0xdd, 0xbc, 0xee, 0xc9, 0x60, 0xa4, 0xf3, 0x5c, 0xe1, 0x84, 0x68, 0x0e,
	0x38, 0x28, 0x36, 0x67, 0xa2, 0x8b, 0x87, 0x46, 0x04, 0x2b, 0x30, 0xbe,
	0x70, 0xfe, 0x4c, 0x99, 0x92, 0x22, 0xcd, 0xf9, 0x8d, 0x64, 0x5a, 0x03,
	0x5c, 0xbc, 0x54, 0xf7, 0xcb, 0x15, 0x3c, 0x2b, 0xbd, 0x72, 0x77, 0xee,
	0x5c, 0x4f, 0xce, 0x7a, 0xc9, 0x9d, 0xb0, 0xe2, 0x66, 0x7e, 0xc8, 0x96,
	0x84, 0x5b, 0xac, 0x89, 0xf2, 0x21, 0x46, 0x2f, 0x88, 0x0b, 0x88, 0xca,
	0x8a, 0xd3, 0xc6, 0x2f, 0xc4, 0xaf, 0x78, 0xec, 0x61, 0x36, 0x7c, 0x5c,
	0x3e, 0xa9, 0xba, 0xdc, 0x83, 0x39, 0xb6, 0x06, 0x17, 0xd5, 0xc9, 0x5c,
	0xa4, 0xc8, 0x67, 0x21, 0x4f, 0xf8, 0xdc, 0x81, 0x9d, 0x44, 0x90, 0x84,
	0x1f, 0x39, 0x1a, 0x25, 0x6c, 0x46, 0xde, 0x57, 0xec, 0x5d, 0xa7, 0xc5,
	0x03, 0xdb, 0x2f, 0x06, 0x05, 0xb4, 0xbf, 0xec, 0x79, 0xf2, 0x6c, 0x5e,
	0xbf, 0x73, 0xe3, 0x49, 0xae, 0x6f, 0xa1, 0xd1, 0x27, 0xb5, 0x71, 0xb4,
	0xf4, 0x44, 0x64, 0x41, 0x5f, 0xda, 0x97, 0xc2, 0x0a, 0x1d, 0xc3, 0xa5,
	0xd6, 0xf6, 0xa2, 0xa7, 0x17, 0xb5, 0x69, 0x2d, 0x3c, 0xe5, 0xb0, 0x0c,
	0x4d, 0x6a, 0xa0, 0xff, 0xf2, 0xee, 0x4e, 0x85, 0xac, 0x44, 0x2a, 0x3c,
	0xbf, 0x44, 0x4f, 0xe1, 0x1e, 0x31, 0xf2, 0x14, 0x78, 0x81, 0x15, 0x4e,
	0x57, 0x1f, 0x96, 0xdd, 0x19, 0x37, 0x67, 0x58, 0xd9, 0xdf, 0xcc, 0x9a,
	0x47, 0x9d, 0x19, 0xf4, 0x64, 0x30, 0x3f, 0xe3, 0x32, 0x1b, 0x9e, 0x9f,
	0x78, 0xc9, 0xa6, 0xea, 0x20, 0x5b, 0x27, 0x46, 0xa4, 0xd4, 0xe5, 0x79,
	0x23, 0x3c, 0x3e, 0x4f, 0xac, 0xec, 0x44, 0x8c, 0xb6, 0x3f, 0xd8, 0x69,
	0x87, 0x42, 0xf8, 0xa4, 0xd6, 0x8a, 0x6f, 0x2d, 0x74, 0x9c, 0xd5, 0x50,
	0xa0, 0x0a, 0x2c, 0x95, 0xe4, 0xb9, 0xef, 0x59, 0xdd, 0x7f, 0x9d, 0x8d,
	0xf6, 0xcf, 0xfa, 0x09, 0xd4, 0x93, 0xb8, 0x7d, 0xb2, 0x06, 0xa5, 0x6b,
	0xb5, 0x83, 0x6b, 0xb2, 0x71, 0x42, 0x2f, 0x7d, 0x89, 0x90, 0x9a, 0xd3,
	0x15, 0x22, 0x81, 0xbe, 0xba, 0x77, 0x32, 0xe3, 0xed, 0x32, 0x60, 0xc4,
	0xeb, 0x47, 0x88, 0x23, 0x12, 0xea, 0xd4, 0x16, 0xc7, 0x01, 0x90, 0x7c,
	0xb3, 0x48, 0xf5, 0x0a, 0xfe, 0x8a, 0x05, 0x1c, 0x79, 0xc9, 0x09, 0xa0,
	0xa4, 0x7e, 0x3e, 0xd2, 0xe8, 0xb3, 0x1e, 0xfc, 0x3e, 0x19, 0xcb, 0x3d,
	0x71, 0x30, 0x2a, 0xd1, 0x9d, 0x63, 0x78, 0x2a, 0x52, 0x91, 0x99, 0xed,
	0x47, 0xad, 0x23, 0xf4, 0x74, 0x07, 0xbd, 0xaf, 0x1d, 0xaa, 0x61, 0x67,
	0x1a, 0x9e, 0xda, 0x6b, 0x22, 0xb2, 0x42, 0xde, 0x04, 0xdf, 0xb3, 0x90,
	0xf1, 0x7a, 0x62, 0x33, 0xd7, 0xe4, 0x2b, 0x7c, 0x96, 0xbb, 0x63, 0x3d,
	0x9c, 0x89, 0xf8, 0x96, 0x7e, 0x01, 0x3b, 0x51, 0x22, 0x2e, 0x45, 0xff,
	0xde, 0xe5, 0x99, 0x49, 0xef, 0xad, 0x90, 0x47, 0xd8, 0x1e, 0x68, 0xda,
	0x74, 0xf8, 0x1b, 0x85, 0xad, 0xe8, 0x13, 0x39, 0xec, 0x59, 0x55, 0xb7,
	0xbe, 0x25, 0x10, 0x64, 0xdd, 0x61, 0x22, 0xab, 0x39, 0x96, 0xce, 0x13,
	0x16, 0xe0, 0xbb, 0x25, 0x40, 0xa3, 0x12, 0xd4, 0x2e, 0xd0, 0x24, 0x66,
	0x47, 0x64, 0x40, 0x7f, 0xb5, 0x7a, 0xd0, 0x8c, 0x08, 0xe8, 0x50, 0x39,
	0x35, 0x35, 0x04, 0x4c, 0xc5, 0x7a, 0x57, 0xa8, 0xea, 0x5e, 0x12, 0x74,
	0xcc, 0xec, 0xb2, 0x7a, 0xd8, 0xa1, 0x54, 0x38, 0xfb, 0x2d, 0x24, 0x7b,
	0x87, 0xcc, 0xb6, 0xb0, 0x86, 0xd7, 0xaf, 0x59, 0x36, 0xf2, 0xc0, 0xe1,
	0xb9, 0x4b, 0x24, 0x7d, 0x20, 0x40, 0x03, 0x8f, 0x70, 0xbe, 0xee, 0xe4,
	0x0c, 0xf4, 0xc8, 0x15, 0x21, 0x4b, 0x1b, 0x4d, 0xd5, 0x19, 0x8e, 0x3a,
	0xa1, 0x29, 0x3a, 0x2f, 0xe7, 0xa7, 0x1b, 0x39, 0xf7, 0x8c, 0xe4, 0x02,
	0x0b, 0x18, 0xfc, 0xf2, 0x00, 0x4f, 0x87, 0xfe, 0x95, 0xae, 0xc5, 0xaf,
	0x2a, 0xeb, 0x36, 0x1d, 0x1f, 0x25, 0x8c, 0xac, 0xe1, 0x4a, 0xdd, 0x64,
	0x8b, 0x82, 0x3d, 0x73, 0xd9, 0x49, 0xaf, 0xf7, 0xcc, 0x53, 0x93, 0x2a,
	0x04, 0x6e, 0x16, 0x16, 0x3c, 0xb7, 0xc9, 0x57, 0x98, 0x7d, 0xaf, 0x40,
	0x42, 0x39, 0xf7, 0xcf, 0x3e, 0x0d, 0xf1, 0x3c, 0x1b, 0x17, 0x11, 0x17,
	0xda, 0x19, 0xc6, 0x6d, 0x0b, 0x45, 0xdb, 0x82, 0x65, 0xab, 0xdd, 0xbd,
	0x62, 0x3b, 0x74, 0x08, 0xf3, 0x4d, 0x94, 0x69, 0x5a, 0x51, 0xca, 0x6c,
	0xf0, 0x43, 0xfa, 0x3e, 0xd3, 0xc7, 0x32, 0x8b, 0x73, 0x95, 0xac, 0x4e,
	0x4e, 0x3c, 0x4e, 0xc6, 0x71, 0xbe, 0xd4, 0xa5, 0xe1, 0xc6, 0x6b, 0x61,
	0x32, 0x1f, 0x6b, 0xb6, 0x31, 0x00, 0x49, 0xfe, 0x55, 0x99, 0xc2, 0xfb,
	0xef, 0xc2, 0xc6, 0x6d, 0xda, 0xf4, 0x03, 0x05, 0x56, 0xe0, 0xd0, 0xd1,
	0xb4, 0x40, 0xa9, 0x72, 0xd5, 0xc6, 0xca, 0x06, 0x95, 0x88, 0x58, 0x81,
	0xfd, 0x09, 0xee, 0xbc, 0x69, 0x56, 0x3a, 0x8c, 0x5d, 0xfc, 0xa6, 0xfa,
	0x2b, 0x01, 0xd8, 0xdf, 0x60, 0x79, 0x8e, 0xc4, 0x8f, 0xd1, 0x4f, 0xc0,
	0x68, 0xac, 0xff, 0x3c, 0x8a, 0xc8, 0xab, 0x37, 0xd2, 0x33, 0xe5, 0x04,
	0x11, 0xac, 0x2e, 0xb8, 0x5b, 0x74, 0x79, 0x7a, 0x2f, 0x46, 0x33, 0x77,
	0xd7, 0x2a, 0xb1, 0x31, 0xc9, 0x47, 0x3a, 0xba, 0xa3, 0x87, 0x0f, 0x16,
	0x85, 0xd9, 0x2b, 0x67, 0x93, 0xd0, 0xd9, 0x44, 0x13, 0x4f, 0xbf, 0x8a,
	0xe3, 0xa5, 0xda, 0xf7, 0x76, 0x3d, 0x5c, 0x55, 0x44, 0x33, 0xe4, 0x4a,
	0x29, 0x9b, 0x2b, 0xa8, 0x9b, 0xd6, 0x94, 0xd5, 0x51, 0xe1, 0x40, 0x46,
	0x18, 0xd7, 0xce, 0x94, 0x32, 0xd6, 0x68, 0x70, 0x14, 0x9e, 0xd2, 0x2d,
	0x90, 0x9e, 0x83, 0x70, 0x8f, 0xc2, 0xaa, 0xb1, 0x53, 0xaf, 0xe6, 0xed,
	0x63, 0xe4, 0x8d, 0xd3, 0x89, 0xe9, 0x2e, 0xd4, 0x62, 0x13, 0xda, 0x7c,
	0x5f, 0x2c, 0x78, 0xab, 0x85, 0x79, 0x3f, 0x90, 0xfe, 0xcb, 0x86, 0x28,
	0x9b, 0xbb, 0x3b, 0x09, 0x04, 0xcb, 0x7c, 0xa5, 0xed, 0x78, 0xf1, 0x97,
	0x99, 0xb5, 0xe8, 0x67, 0x39, 0x9d, 0x98, 0x1e, 0x56, 0x0d, 0x7d, 0xf4,
	0x12, 0x25, 0x6d, 0xa9, 0xbc, 0x41, 0x67, 0x4d, 0x6c, 0x30, 0x48, 0x02,
	0xe0, 0xda, 0x9c, 0xbc, 0x04, 0x9c, 0xab, 0x0d, 0xb7, 0x3d, 0x38, 0xb3,
	0xab, 0x65, 0xdd, 0x18, 0x1c, 0x11, 0xf5, 0xcc, 0x12, 0x13, 0x13, 0x4a,
	0xcb, 0xde, 0xc8, 0xb8, 0x42, 0x09, 0xe0, 0x91, 0xd7, 0xbc, 0x5e, 0x71,
	0x68, 0x06, 0x64, 0x16, 0x86, 0xe9, 0x22, 0xe7, 0x86, 0xbb, 0x8e, 0x24,
	0x9e, 0x4c, 0xdb, 0xc3, 0xd3, 0x70, 0x13, 0x52, 0xd6, 0xcb, 0x79, 0xd1,
	0x4a, 0x79, 0x29, 0x67, 0x4c, 0x0e, 0xb3, 0xb6, 0xbe, 0xca, 0xea, 0x6e,
	0xeb, 0x6a, 0x6a, 0xd5, 0x6e, 0x34, 0x08, 0xff, 0x72, 0xbd, 0xda, 0x3c,
	0x9d, 0x28, 0x8a, 0x02, 0x3c, 0x7e, 0xc6, 0x79, 0x89, 0xbe, 0xe2, 0xb8,
	0x4f, 0x82, 0x4c, 0x3a, 0xab, 0xcc, 0x2e, 0x40, 0xf9, 0x8b, 0x8f, 0x47,
	0x51, 0x36, 0xdf, 0xcc, 0x87, 0x15, 0x58, 0x14, 0xce, 0x84, 0x07, 0xe3,
	0x32, 0x35, 0xcd, 0x42, 0xa3, 0x84, 0xa7, 0x6b, 0xfe, 0xd7, 0xe9, 0x3b,
	0x96, 0xac, 0xe4, 0xed, 0xe2, 0x91, 0x57, 0x51, 0x54, 0x81, 0x22, 0x71,
	0x60, 0x94, 0x37, 0x2e, 0xed, 0x66, 0x1d, 0xa3, 0xc6, 0xfd, 0xe0, 0xfa,
	0xb1, 0x5f, 0x9c, 0x0c, 0xb4, 0xd9, 0xad, 0x29, 0x7d, 0xef, 0xd9, 0x5e,
	0x93, 0x9f, 0x1f, 0xb3, 0x79, 0x84, 0xb3, 0xbb, 0x99, 0xe1, 0x78, 0xda,
	0xcb, 0x61, 0xff, 0x4b, 0xa1, 0x42, 0x4e, 0xd3, 0x35, 0x2d, 0x5b, 0xe2,
	0x23, 0xcd, 0xcf, 0x2d, 0x0f, 0x7c, 0xd0, 0x2a, 0x8b, 0x51, 0xc6, 0xca,
	0x63, 0x16, 0x77, 0x88, 0xab, 0xd4, 0xdd, 0x07, 0x3e, 0xaa, 0xe6, 0x42,
	0xbf, 0xcb, 0x49, 0x57, 0x87, 0x7e, 0x81, 0xe3, 0x24, 0x0e, 0xac, 0x04,
	0xe5, 0xb0, 0x65, 0xd6, 0x27, 0x24, 0xf2, 0x97, 0x97, 0xe4, 0x6e, 0x06,
	0xc1, 0xdf, 0xb9, 0x4f, 0xf5, 0x70, 0x63, 0xbc, 0x37, 0xf9, 0xbe, 0x39,
	0xa7, 0x56, 0x20, 0x2f, 0xb3, 0x36, 0x7c, 0x79, 0x13, 0xcb, 0xb5, 0x5f,
	0x05, 0x02, 0x3f, 0xbd, 0xb9, 0x08, 0x54, 0x1f, 0xa5, 0xf5, 0x0d, 0x63,
	0xa7, 0xad, 0x9b, 0x50, 0xfb, 0x06, 0xe7, 0xbe, 0xb3, 0x78, 0x9d, 0xfc,
	0xbd, 0xae, 0x7d, 0x16, 0xb3, 0x05, 0xea, 0x48, 0x66, 0x6a, 0x81, 0xfc,
	0x6e, 0xdb, 0xc6, 0x23, 0x5f, 0x05, 0x1b, 0x43, 0x10, 0x1a, 0xea, 0xa9,
	0xd5, 0x1b, 0x95, 0xd4, 0xf7, 0x6f, 0x2c, 0x4e, 0xc9, 0x64, 0xa7, 0xe5,
	0xb0, 0x10, 0x25, 0xc8, 0xc4, 0x2f, 0x0e, 0x8e, 0x19, 0x45, 0xc6, 0x25,
	0x27, 0xac, 0x1d, 0x2b, 0x08, 0x33, 0xd5, 0xa7, 0x9b, 0xa4, 0xf7, 0x01,
	0x94, 0x24, 0x05, 0x1e, 0xa7, 0xec, 0xc2, 0xa8, 0x5e, 0x63, 0x3b, 0xee,
	0xbf, 0xa6, 0x7d, 0xcb, 0x90, 0x8e, 0x18, 0xce, 0x9b, 0xe9, 0xa0, 0xcd,
	0x0f, 0x70, 0x30, 0x82, 0x25, 0x55, 0x77, 0x1b, 0xde, 0x8d, 0x1d, 0x1d,
	0xa3, 0x1f, 0x9d, 0xe4, 0xf5, 0xd0, 0x4e, 0xc5, 0x81, 0xf1, 0xad, 0xdb,
	0xaa, 0xcb, 0xba, 0x2c, 0xfa, 0x5f, 0x29, 0xea, 0x51, 0xcd, 0x49, 0xa6,
	0xd8, 0x28, 0xa0, 0xc8, 0xa9, 0xb7, 0x0f, 0x24, 0x5c, 0xcc, 0x5f, 0xff,
	0xa7, 0xb9, 0x1b, 0x2c, 0x39, 0x81, 0xfb, 0xd7, 0x36, 0xd0, 0x45, 0x4f,
	0xa0, 0x01, 0xe9, 0x02, 0xb3, 0xb6, 0xb4, 0xfb, 0x65, 0xa2, 0x3b, 0xf0,
	0xd5, 0x3a, 0xf2, 0x27, 0x6e, 0x0b, 0xc0, 0xcf, 0x09, 0x08, 0x84, 0x40,
	0x4a, 0xa2, 0x01, 0xe7, 0xf5, 0x97, 0xa2, 0xd2, 0x04, 0x9e, 0xa7, 0xc5,
	0x38, 0xf9, 0x2f, 0x4b, 0x21, 0x32, 0x18, 0x7d, 0x68, 0xfa, 0x82, 0x7e,
	0x50, 0x4e, 0x5c, 0xdf, 0x7a, 0xff, 0xff, 0xff, 0x00, 0x00, 0x00, 0x09,
	0x18, 0x00, 0x00, 0x00, 0x03, 0x00, 0x00, 0x00, 0x08, 0x00, 0x00, 0x00,
	0x18, 0x00, 0x00, 0x00, 0x01, 0x00, 0x00, 0x00, 0x31, 0x00, 0x00, 0x00,
	0x01, 0x00, 0x00, 0x00, 0x00, 0x08, 0x00, 0x00, 0x04, 0x00, 0x06, 0x00,
	0x04, 0x00, 0x00, 0x00, 0x00, 0x00, 0x06, 0x00, 0x08, 0x00, 0x04, 0x00,
	0x06, 0x00, 0x00, 0x00, 0x04, 0x00, 0x00, 0x00, 0x40, 0x00, 0x00, 0x00,
	0xaf, 0x26, 0x4e, 0x26, 0xc3, 0x25, 0xb7, 0x26, 0x74, 0x26, 0x6e, 0x26,
	0x1d, 0x26, 0x81, 0x26, 0x74, 0x26, 0x7c, 0x26, 0x90, 0x26, 0x76, 0x26,
	0x8f, 0x26, 0x73, 0x26, 0xb8, 0x26, 0x66, 0x26, 0x7a, 0x04, 0x35, 0x04,
	0x66, 0x04, 0xc6, 0x04, 0x39, 0x04, 0x96, 0x04, 0x72, 0x04, 0x9a, 0x04,
	0x75, 0x04, 0x5e, 0x04, 0x28, 0x04, 0xde, 0x04, 0x9a, 0x04, 0x96, 0x04,
	0x50, 0x04, 0x91, 0x04, 0x00, 0x00, 0x0e, 0x00, 0x18, 0x00, 0x08, 0x00,
	0x07, 0x00, 0x0c, 0x00, 0x10, 0x00, 0x14, 0x00, 0x0e, 0x00, 0x00, 0x00,
	0x00, 0x00, 0x00, 0x07, 0x18, 0x00, 0x00, 0x00, 0x02, 0x00, 0x00, 0x00,
	0x08, 0x00, 0x00, 0x00, 0x14, 0x00, 0x00, 0x00, 0x01, 0x00, 0x00, 0x00,
	0x30, 0x00, 0x00, 0x00, 0x01, 0x00, 0x00, 0x00, 0x20, 0x00, 0x00, 0x00,
	0x64, 0xff, 0xff, 0xff, 0x14, 0x00, 0x1c, 0x00, 0x08, 0x00, 0x07, 0x00,
	0x0c, 0x00, 0x10, 0x00, 0x14, 0x00, 0x00, 0x00, 0x00, 0x00, 0x18, 0x00,
	0x14, 0x00, 0x00, 0x00, 0x00, 0x00, 0x00, 0x09, 0x3c, 0x00, 0x00, 0x00,
	0x01, 0x00, 0x00, 0x00, 0x20, 0x00, 0x00, 0x00, 0x50, 0x00, 0x00, 0x00,
	0x04, 0x00, 0x00, 0x00, 0x04, 0x00, 0x00, 0x00, 0xff, 0xff, 0xff, 0xff,
	0x07, 0x00, 0x00, 0x00, 0x06, 0x00, 0x00, 0x00, 0x20, 0x00, 0x00, 0x00,
	0x0c, 0x00, 0x00, 0x00, 0x63, 0x6f, 0x6e, 0x76, 0x32, 0x64, 0x5f, 0x69,
	0x6e, 0x70, 0x75, 0x74, 0x00, 0x00, 0x00, 0x00, 0x04, 0x00, 0x00, 0x00,
	0x01, 0x00, 0x00, 0x00, 0x07, 0x00, 0x00, 0x00, 0x06, 0x00, 0x00, 0x00,
	0x20, 0x00, 0x00, 0x00, 0x0c, 0x00, 0x0c, 0x00, 0x00, 0x00, 0x00, 0x00,
	0x04, 0x00, 0x08, 0x00, 0x0c, 0x00, 0x00, 0x00, 0x14, 0x00, 0x00, 0x00,
	0x04, 0x00, 0x00, 0x00, 0x01, 0x00, 0x00, 0x00, 0xff, 0xff, 0xff, 0xff,
	0xff, 0xff, 0xff, 0xff, 0x01, 0x00, 0x00, 0x00, 0x9d, 0x76, 0x00, 0x3c,
	0x04, 0x00, 0x04, 0x00, 0x04, 0x00, 0x00, 0x00
};

#endif /* ONE_TFLITE_H */
